
#ifdef __has_attribute
#define HAVE_ATTRIBUTE(x) __has_attribute(x)
#else
#define HAVE_ATTRIBUTE(x) 0
#endif
#if HAVE_ATTRIBUTE(aligned) || (defined(__GNUC__) && !defined(__clang__))
#define DATA_ALIGN_ATTRIBUTE __attribute__((aligned(4)))
#else
#define DATA_ALIGN_ATTRIBUTE
#endif

const unsigned char prey_car[] DATA_ALIGN_ATTRIBUTE = {
	0x1c, 0x00, 0x00, 0x00, 0x54, 0x46, 0x4c, 0x33, 0x14, 0x00, 0x20, 0x00, 
	0x1c, 0x00, 0x18, 0x00, 0x14, 0x00, 0x10, 0x00, 0x0c, 0x00, 0x00, 0x00, 
	0x08, 0x00, 0x04, 0x00, 0x14, 0x00, 0x00, 0x00, 0x1c, 0x00, 0x00, 0x00, 
	0x88, 0x00, 0x00, 0x00, 0xe0, 0x00, 0x00, 0x00, 0xcc, 0x0b, 0x00, 0x00, 
	0xdc, 0x0b, 0x00, 0x00, 0xf4, 0x14, 0x00, 0x00, 0x03, 0x00, 0x00, 0x00, 
	0x01, 0x00, 0x00, 0x00, 0x04, 0x00, 0x00, 0x00, 0x72, 0xf3, 0xff, 0xff, 
	0x0c, 0x00, 0x00, 0x00, 0x1c, 0x00, 0x00, 0x00, 0x38, 0x00, 0x00, 0x00, 
	0x0f, 0x00, 0x00, 0x00, 0x73, 0x65, 0x72, 0x76, 0x69, 0x6e, 0x67, 0x5f, 
	0x64, 0x65, 0x66, 0x61, 0x75, 0x6c, 0x74, 0x00, 0x01, 0x00, 0x00, 0x00, 
	0x04, 0x00, 0x00, 0x00, 0x94, 0xff, 0xff, 0xff, 0x0f, 0x00, 0x00, 0x00, 
	0x04, 0x00, 0x00, 0x00, 0x07, 0x00, 0x00, 0x00, 0x64, 0x65, 0x6e, 0x73, 
	0x65, 0x5f, 0x35, 0x00, 0x01, 0x00, 0x00, 0x00, 0x04, 0x00, 0x00, 0x00, 
	0xd2, 0xf4, 0xff, 0xff, 0x04, 0x00, 0x00, 0x00, 0x0e, 0x00, 0x00, 0x00, 
	0x63, 0x6f, 0x6e, 0x76, 0x32, 0x64, 0x5f, 0x36, 0x5f, 0x69, 0x6e, 0x70, 
	0x75, 0x74, 0x00, 0x00, 0x02, 0x00, 0x00, 0x00, 0x34, 0x00, 0x00, 0x00, 
	0x04, 0x00, 0x00, 0x00, 0xdc, 0xff, 0xff, 0xff, 0x12, 0x00, 0x00, 0x00, 
	0x04, 0x00, 0x00, 0x00, 0x13, 0x00, 0x00, 0x00, 0x43, 0x4f, 0x4e, 0x56, 
	0x45, 0x52, 0x53, 0x49, 0x4f, 0x4e, 0x5f, 0x4d, 0x45, 0x54, 0x41, 0x44, 
	0x41, 0x54, 0x41, 0x00, 0x08, 0x00, 0x0c, 0x00, 0x08, 0x00, 0x04, 0x00, 
	0x08, 0x00, 0x00, 0x00, 0x11, 0x00, 0x00, 0x00, 0x04, 0x00, 0x00, 0x00, 
	0x13, 0x00, 0x00, 0x00, 0x6d, 0x69, 0x6e, 0x5f, 0x72, 0x75, 0x6e, 0x74, 
	0x69, 0x6d, 0x65, 0x5f, 0x76, 0x65, 0x72, 0x73, 0x69, 0x6f, 0x6e, 0x00, 
	0x13, 0x00, 0x00, 0x00, 0xe8, 0x0a, 0x00, 0x00, 0xe0, 0x0a, 0x00, 0x00, 
	0xb0, 0x0a, 0x00, 0x00, 0x88, 0x0a, 0x00, 0x00, 0x70, 0x0a, 0x00, 0x00, 
	0xe0, 0x07, 0x00, 0x00, 0x30, 0x07, 0x00, 0x00, 0x70, 0x05, 0x00, 0x00, 
	0xe0, 0x00, 0x00, 0x00, 0xc0, 0x00, 0x00, 0x00, 0xb8, 0x00, 0x00, 0x00, 
	0xb0, 0x00, 0x00, 0x00, 0xa8, 0x00, 0x00, 0x00, 0xa0, 0x00, 0x00, 0x00, 
	0x98, 0x00, 0x00, 0x00, 0x90, 0x00, 0x00, 0x00, 0x88, 0x00, 0x00, 0x00, 
	0x68, 0x00, 0x00, 0x00, 0x04, 0x00, 0x00, 0x00, 0x9a, 0xf5, 0xff, 0xff, 
	0x04, 0x00, 0x00, 0x00, 0x54, 0x00, 0x00, 0x00, 0x0c, 0x00, 0x00, 0x00, 
	0x08, 0x00, 0x0e, 0x00, 0x08, 0x00, 0x04, 0x00, 0x08, 0x00, 0x00, 0x00, 
	0x10, 0x00, 0x00, 0x00, 0x24, 0x00, 0x00, 0x00, 0x00, 0x00, 0x06, 0x00, 
	0x08, 0x00, 0x04, 0x00, 0x06, 0x00, 0x00, 0x00, 0x04, 0x00, 0x00, 0x00, 
	0x00, 0x00, 0x00, 0x00, 0x00, 0x00, 0x0a, 0x00, 0x10, 0x00, 0x0c, 0x00, 
	0x08, 0x00, 0x04, 0x00, 0x0a, 0x00, 0x00, 0x00, 0x02, 0x00, 0x00, 0x00, 
	0x02, 0x00, 0x00, 0x00, 0x04, 0x00, 0x00, 0x00, 0x05, 0x00, 0x00, 0x00, 
	0x32, 0x2e, 0x39, 0x2e, 0x31, 0x00, 0x00, 0x00, 0xfa, 0xf5, 0xff, 0xff, 
	0x04, 0x00, 0x00, 0x00, 0x10, 0x00, 0x00, 0x00, 0x31, 0x2e, 0x35, 0x2e, 
	0x30, 0x00, 0x00, 0x00, 0x00, 0x00, 0x00, 0x00, 0x00, 0x00, 0x00, 0x00, 
	0xf0, 0xec, 0xff, 0xff, 0xf4, 0xec, 0xff, 0xff, 0xf8, 0xec, 0xff, 0xff, 
	0xfc, 0xec, 0xff, 0xff, 0x00, 0xed, 0xff, 0xff, 0x04, 0xed, 0xff, 0xff, 
	0x08, 0xed, 0xff, 0xff, 0x32, 0xf6, 0xff, 0xff, 0x04, 0x00, 0x00, 0x00, 
	0x10, 0x00, 0x00, 0x00, 0x7b, 0x94, 0xc7, 0xbe, 0xdc, 0x17, 0xe7, 0xbe, 
	0xe9, 0x57, 0x0b, 0x3f, 0x85, 0x7a, 0x51, 0x3f, 0x4e, 0xf6, 0xff, 0xff, 
	0x04, 0x00, 0x00, 0x00, 0x80, 0x04, 0x00, 0x00, 0xfe, 0x3e, 0x0e, 0xbd, 
	0x65, 0xfa, 0xba, 0xbd, 0xc7, 0x16, 0xb5, 0x3d, 0x89, 0x2f, 0xfb, 0xbd, 
	0x24, 0x7b, 0xa2, 0x3d, 0x3f, 0xd3, 0xa0, 0xbd, 0x1e, 0x3d, 0xa6, 0x3e, 
	0x9c, 0x90, 0x6f, 0x3e, 0xa5, 0xb9, 0xa4, 0xbe, 0xde, 0xbe, 0xdb, 0xbd, 
	0x74, 0xa7, 0x37, 0x3e, 0xe0, 0x68, 0x5c, 0xbc, 0xa0, 0x07, 0xa9, 0xbe, 
	0x7c, 0x58, 0x65, 0x3d, 0xa0, 0xcd, 0x42, 0xbd, 0xdc, 0x96, 0x1a, 0x3e, 
	0xd2, 0xfa, 0x86, 0xbe, 0x09, 0xb7, 0xb5, 0x3d, 0x51, 0x3c, 0xc9, 0x3d, 
	0x0b, 0x35, 0x5f, 0x3e, 0x61, 0x74, 0x1f, 0xbf, 0x0b, 0x4e, 0xe4, 0x3d, 
	0xd9, 0x18, 0xbe, 0x3e, 0x74, 0x43, 0x60, 0x3e, 0xbe, 0xcd, 0xcc, 0xbd, 
	0x43, 0xdc, 0x53, 0xbe, 0x67, 0xa7, 0xd2, 0xbc, 0x75, 0xae, 0x43, 0xba, 
	0x43, 0xb8, 0xb3, 0xbd, 0xa6, 0x06, 0x80, 0x3c, 0xe8, 0xe6, 0xb6, 0x3e, 
	0xdf, 0x0e, 0x9d, 0x3d, 0x63, 0xcf, 0x68, 0xbe, 0x76, 0xf4, 0x15, 0xbe, 
	0xec, 0xa1, 0x29, 0x3d, 0xc1, 0xde, 0xb8, 0x3e, 0x26, 0x4e, 0x44, 0x3f, 
	0xa8, 0x2e, 0x83, 0x3e, 0x61, 0xa1, 0x29, 0x3e, 0xf7, 0x9e, 0x6e, 0x3e, 
	0x41, 0xbe, 0xe6, 0x3e, 0x6e, 0x80, 0x0d, 0x3e, 0x55, 0x66, 0x22, 0xbe, 
	0x98, 0x36, 0xfa, 0x3d, 0x51, 0x90, 0xf8, 0xbe, 0xef, 0x46, 0x03, 0xbf, 
	0xe4, 0xef, 0xbd, 0x3d, 0x9e, 0x6c, 0x01, 0x3e, 0x13, 0xcc, 0x01, 0x3f, 
	0xd7, 0x40, 0xef, 0x3e, 0x09, 0xfd, 0x08, 0xbe, 0xa4, 0x84, 0xee, 0x3d, 
	0xe7, 0x12, 0x8e, 0x3e, 0x3a, 0x4a, 0x7a, 0x3e, 0x5f, 0x07, 0xc2, 0xbd, 
	0x9e, 0xdf, 0xa6, 0x3e, 0x48, 0x46, 0xa5, 0xbe, 0x8c, 0x76, 0x2a, 0xbf, 
	0x2c, 0x03, 0x9b, 0x3a, 0xc1, 0x4c, 0xad, 0x3e, 0xa2, 0x82, 0x1d, 0x3f, 
	0x5e, 0x39, 0x68, 0x3e, 0x1f, 0x15, 0x39, 0xbd, 0x0e, 0xa6, 0xab, 0xbd, 
	0x78, 0x8e, 0x3b, 0x3e, 0xcf, 0x31, 0x14, 0x3f, 0x03, 0x23, 0x85, 0x3e, 
	0x4e, 0xdd, 0x3c, 0x3e, 0x99, 0x5a, 0xaf, 0xbe, 0x46, 0x64, 0x81, 0xbe, 
	0x20, 0xe4, 0x62, 0xbc, 0x6f, 0x08, 0xae, 0x3d, 0x8a, 0x3d, 0x86, 0x3e, 
	0xf2, 0x29, 0x02, 0x3f, 0xe6, 0xa1, 0x3d, 0xbe, 0xcb, 0x9d, 0x57, 0x3e, 
	0x3e, 0xfa, 0x2a, 0xbe, 0x88, 0x0b, 0x31, 0x3e, 0x65, 0x73, 0xca, 0xbd, 
	0xf9, 0x8c, 0xaa, 0x3d, 0xa5, 0xfa, 0xeb, 0x3b, 0xf2, 0x9e, 0x0f, 0x3f, 
	0x9f, 0x20, 0xe5, 0xbd, 0x51, 0xcb, 0xf0, 0x3d, 0x82, 0xfb, 0xf8, 0x3e, 
	0x11, 0xc9, 0xa9, 0x3e, 0x48, 0x51, 0x24, 0x3d, 0x10, 0xed, 0x9a, 0x3e, 
	0x02, 0xf6, 0x89, 0xbe, 0xb7, 0x93, 0xfd, 0xbd, 0x31, 0x68, 0x72, 0x3e, 
	0x45, 0xb4, 0xb1, 0xbd, 0x2a, 0x79, 0xa2, 0x3e, 0xe5, 0x1f, 0x15, 0x3f, 
	0x39, 0x55, 0x13, 0x3e, 0x2a, 0xf8, 0x6c, 0xbc, 0x3e, 0x51, 0x81, 0x3c, 
	0xd9, 0x9c, 0xf2, 0x3e, 0x6e, 0x8a, 0x6e, 0xbe, 0xcc, 0x50, 0xa6, 0x3e, 
	0xa8, 0x34, 0xe8, 0xbd, 0x1e, 0xde, 0x8f, 0xbe, 0xf8, 0xd9, 0x80, 0x3e, 
	0x39, 0x8e, 0x64, 0x3e, 0x1c, 0x0b, 0x1b, 0x3d, 0xdb, 0x9d, 0xe3, 0xbb, 
	0x31, 0xb4, 0x20, 0xbe, 0xbd, 0x58, 0x52, 0x3d, 0x25, 0xdf, 0xbf, 0xbe, 
	0x3c, 0x87, 0x7b, 0x3d, 0xb9, 0xc1, 0x9c, 0xbd, 0x5b, 0x12, 0xec, 0xbd, 
	0x8b, 0x3b, 0xcb, 0xbe, 0xf7, 0xe6, 0x3e, 0xbd, 0x81, 0xc4, 0x44, 0x3e, 
	0x8c, 0x4d, 0x59, 0xbe, 0xa0, 0xfd, 0x1e, 0x3c, 0x74, 0xc0, 0x61, 0x3e, 
	0x8b, 0x66, 0x13, 0x3e, 0x98, 0xe8, 0xcf, 0xbe, 0x95, 0xd4, 0x25, 0x3f, 
	0xa9, 0x38, 0x97, 0x3e, 0xfb, 0x99, 0x69, 0xbe, 0xc6, 0x1e, 0xce, 0xbc, 
	0x5e, 0x9b, 0xfa, 0x3e, 0xe0, 0xbd, 0x25, 0x3d, 0x66, 0x54, 0xa5, 0x3d, 
	0xdd, 0x7c, 0xae, 0x3a, 0xdf, 0x48, 0x12, 0xbe, 0x78, 0x73, 0x14, 0xbe, 
	0x68, 0x0b, 0x27, 0xbe, 0x52, 0x2b, 0x21, 0x3e, 0x2f, 0x18, 0x07, 0x3f, 
	0xcf, 0xed, 0x59, 0x3d, 0x73, 0xa9, 0x9c, 0x3d, 0x62, 0xa0, 0x3e, 0x3e, 
	0x57, 0x4a, 0x86, 0x3e, 0x2e, 0x94, 0x8a, 0x3e, 0xe5, 0xa5, 0x38, 0x3d, 
	0xc0, 0x32, 0x0b, 0x3e, 0x8e, 0x1d, 0xfe, 0xbd, 0xd5, 0x3e, 0x02, 0x3e, 
	0x11, 0x1d, 0xd1, 0xbc, 0x69, 0x95, 0x20, 0x3d, 0xa9, 0xe1, 0x19, 0xbe, 
	0x64, 0xcd, 0xea, 0x3d, 0x0c, 0xe4, 0xe5, 0x3c, 0xd5, 0x88, 0x6f, 0xbe, 
	0x45, 0x44, 0x9a, 0xbd, 0x69, 0x83, 0x65, 0xbe, 0xe0, 0x3d, 0x11, 0x3b, 
	0xac, 0x84, 0xd6, 0x3d, 0x0b, 0x29, 0x3c, 0xbe, 0x0f, 0x90, 0x08, 0xbe, 
	0x3e, 0x65, 0xdf, 0xbd, 0xa7, 0xec, 0xc6, 0xbd, 0x14, 0x94, 0x1e, 0xbd, 
	0x07, 0xb7, 0x0f, 0x3e, 0x0e, 0xb4, 0x14, 0x3e, 0x3f, 0xc2, 0xbd, 0xbd, 
	0xca, 0x50, 0x09, 0x3e, 0xeb, 0x08, 0x3f, 0x3e, 0x5d, 0xae, 0x82, 0xbd, 
	0xee, 0x04, 0x08, 0x3e, 0xcf, 0x30, 0x69, 0xbe, 0x57, 0x7c, 0xa6, 0xbc, 
	0x66, 0x37, 0xc5, 0xbc, 0xf0, 0xaa, 0xba, 0xbd, 0x6b, 0x90, 0x04, 0xbe, 
	0x06, 0xa3, 0x6a, 0xbe, 0x82, 0x7f, 0xbb, 0xbd, 0xc2, 0xf4, 0xeb, 0x3d, 
	0x41, 0x69, 0xc6, 0x3d, 0xf0, 0x62, 0x2d, 0xbe, 0x6a, 0x84, 0x05, 0xbe, 
	0xe0, 0x30, 0xe5, 0xbd, 0x9c, 0x4b, 0xeb, 0x3b, 0x49, 0x84, 0xd9, 0xbd, 
	0xc0, 0x4d, 0x71, 0xbd, 0xdc, 0x4d, 0xff, 0x3d, 0xf4, 0x28, 0x29, 0x3e, 
	0xef, 0x37, 0xa1, 0x3d, 0xac, 0x22, 0x58, 0xbe, 0x01, 0xd5, 0x10, 0xbd, 
	0x81, 0xb6, 0xfc, 0x3d, 0x32, 0xf0, 0xe0, 0x3d, 0x90, 0xf0, 0x7a, 0xbe, 
	0xe2, 0x3d, 0x23, 0xbe, 0xe7, 0xb1, 0x1f, 0xbe, 0x93, 0xc5, 0xa1, 0x3d, 
	0x6e, 0x00, 0x4e, 0xbe, 0x7c, 0x78, 0x24, 0x3e, 0x73, 0x4f, 0x16, 0xbe, 
	0x5f, 0x18, 0x73, 0xbe, 0xd5, 0x52, 0xc5, 0xbd, 0xed, 0x4f, 0xdd, 0xbd, 
	0x41, 0xa6, 0x3a, 0xbe, 0x38, 0xa7, 0xe8, 0x3d, 0x11, 0xfa, 0x36, 0x3e, 
	0x74, 0xb2, 0x91, 0xbd, 0x6c, 0x4d, 0x4b, 0xbe, 0xeb, 0xeb, 0x37, 0x3e, 
	0x06, 0xe3, 0xa2, 0xbd, 0x0c, 0xd5, 0x26, 0x3e, 0x7b, 0x85, 0xb4, 0xbd, 
	0xe7, 0xa8, 0x9d, 0xbd, 0xa7, 0x37, 0x36, 0xbd, 0x0e, 0xde, 0x56, 0x3e, 
	0xac, 0xb1, 0xff, 0x3d, 0x75, 0x18, 0xcc, 0x3c, 0x1e, 0x73, 0x21, 0x3e, 
	0x81, 0xcc, 0x9f, 0xbd, 0xe0, 0x90, 0x27, 0xbd, 0x3a, 0xec, 0x4c, 0xbd, 
	0xf2, 0x13, 0x2e, 0xbe, 0xf8, 0x6c, 0x3d, 0xbc, 0x21, 0x11, 0x1d, 0xbf, 
	0x1c, 0x82, 0xe3, 0x3c, 0x83, 0x15, 0x21, 0x3c, 0x66, 0x21, 0x4d, 0x3c, 
	0xa8, 0x6f, 0xf7, 0x3e, 0x39, 0x1c, 0x96, 0x3e, 0xf1, 0x10, 0x5c, 0x3e, 
	0xaf, 0x45, 0xd0, 0x3d, 0xc8, 0x78, 0x8c, 0x3e, 0x35, 0x68, 0x74, 0x3e, 
	0xab, 0x33, 0x40, 0xbd, 0x10, 0x5f, 0xab, 0xbc, 0x21, 0x51, 0x09, 0xbf, 
	0x19, 0x15, 0x46, 0xbe, 0x9d, 0x99, 0x3e, 0x3c, 0xf7, 0x1c, 0xa3, 0xbc, 
	0xb6, 0x60, 0x33, 0x3f, 0x22, 0xd8, 0xd5, 0x3e, 0xb8, 0x75, 0x61, 0x3c, 
	0xde, 0x28, 0x4a, 0x3e, 0x75, 0xd6, 0x20, 0x3f, 0x2b, 0xc7, 0x2c, 0x3f, 
	0x85, 0x20, 0xe0, 0xbd, 0x3e, 0xad, 0x8b, 0x3e, 0xfe, 0xb1, 0x6f, 0xbe, 
	0x43, 0x3b, 0x1b, 0xbd, 0x8c, 0xd9, 0x19, 0x3e, 0x8c, 0x7b, 0x3f, 0xbe, 
	0xd3, 0x98, 0xf1, 0x3e, 0xf9, 0xa5, 0xff, 0x3e, 0x8f, 0x0f, 0x0c, 0xbe, 
	0x1e, 0x44, 0xbb, 0xbd, 0xfd, 0x63, 0xd8, 0x3e, 0xf8, 0x8b, 0x36, 0x3f, 
	0x15, 0xc8, 0x34, 0xbe, 0x03, 0x06, 0xc7, 0x3e, 0x89, 0x08, 0x90, 0x3e, 
	0x4e, 0x9b, 0x70, 0x3e, 0xa9, 0x5d, 0xff, 0x3d, 0xf5, 0xad, 0xeb, 0xbd, 
	0x3c, 0xa0, 0x36, 0x3f, 0x30, 0x3c, 0x76, 0x3e, 0x6e, 0x60, 0xd1, 0xbc, 
	0xc6, 0xfc, 0x57, 0xbe, 0xa8, 0x94, 0x42, 0x3f, 0xeb, 0x4f, 0x49, 0x3f, 
	0xb2, 0xc6, 0xb9, 0x3d, 0x69, 0xc1, 0xbe, 0x3e, 0x99, 0x25, 0xe9, 0x3e, 
	0x04, 0xe4, 0xf0, 0xbc, 0x0a, 0xf6, 0x1c, 0xbe, 0x92, 0x9a, 0x1f, 0xbd, 
	0x38, 0xc6, 0xec, 0x3e, 0xc5, 0x7a, 0x93, 0x3e, 0x2c, 0x40, 0x39, 0x3e, 
	0x69, 0x16, 0x4d, 0xbd, 0x40, 0x53, 0x12, 0x3f, 0xd0, 0x66, 0x26, 0x3f, 
	0xb5, 0xa2, 0xbf, 0x3d, 0x6d, 0x12, 0x4f, 0x3e, 0xf3, 0x26, 0xd5, 0x3e, 
	0x3f, 0xc7, 0x0f, 0x3e, 0xdf, 0xe7, 0x2d, 0xbe, 0x39, 0x23, 0x2f, 0xbe, 
	0xb3, 0xe1, 0x14, 0x3e, 0x5f, 0x86, 0x1c, 0x3e, 0xeb, 0x0d, 0x5c, 0xbe, 
	0xae, 0xa3, 0x3b, 0xbe, 0x53, 0x85, 0xe1, 0x3d, 0x56, 0xe1, 0xe5, 0x3e, 
	0xdd, 0x79, 0xc1, 0x3d, 0x73, 0x0e, 0x35, 0x3e, 0xda, 0xfa, 0xff, 0xff, 
	0x04, 0x00, 0x00, 0x00, 0xb0, 0x01, 0x00, 0x00, 0xee, 0x38, 0x44, 0x3d, 
	0xa5, 0xeb, 0xa4, 0x3e, 0xb2, 0x84, 0x75, 0x3e, 0x23, 0x8e, 0xaa, 0x3c, 
	0x22, 0x29, 0xfa, 0xbd, 0x78, 0x38, 0x5e, 0x3e, 0x22, 0x70, 0xb2, 0x3e, 
	0x3d, 0xc3, 0xd0, 0x3e, 0x4a, 0x28, 0xed, 0x3d, 0x54, 0x05, 0x60, 0xbe, 
	0xea, 0xe6, 0xaa, 0x3e, 0x8f, 0x6f, 0x81, 0x3e, 0xd0, 0xc0, 0x85, 0xbd, 
	0xe0, 0x85, 0x69, 0x3e, 0x1a, 0x16, 0xc6, 0xbe, 0x5a, 0xdb, 0x80, 0x3e, 
	0x34, 0x4c, 0xdf, 0x3d, 0x0b, 0x63, 0x8c, 0x3e, 0x71, 0x8f, 0xf0, 0xbe, 
	0xa5, 0x6f, 0x11, 0xbe, 0x06, 0x48, 0x86, 0xbd, 0xc4, 0x20, 0x3b, 0xbf, 
	0xd0, 0x34, 0x16, 0xbe, 0xa0, 0x68, 0x3f, 0xbf, 0xbc, 0x9a, 0xaf, 0xbe, 
	0xe3, 0x78, 0x2c, 0xbe, 0xbb, 0xca, 0x9e, 0xbe, 0x04, 0x89, 0xfc, 0x39, 
	0x0a, 0x0f, 0x71, 0xbe, 0xb5, 0x69, 0x48, 0xbe, 0x58, 0xbf, 0x18, 0xbe, 
	0xbb, 0x64, 0x8d, 0xbe, 0xdf, 0x1e, 0x97, 0xbd, 0x17, 0x05, 0x0c, 0x3e, 
	0xa3, 0x44, 0xcb, 0x3e, 0x3d, 0xda, 0xdc, 0x3e, 0x2f, 0xb7, 0x66, 0xbd, 
	0x74, 0x06, 0x4c, 0x3e, 0x6a, 0xdd, 0x8f, 0x3d, 0x37, 0x00, 0x25, 0x3e, 
	0xfc, 0x90, 0xa2, 0x3e, 0xe0, 0xf8, 0x8f, 0xbe, 0xde, 0xe5, 0x8d, 0xbd, 
	0x5c, 0x1d, 0x4a, 0x3c, 0x98, 0xab, 0x4a, 0xbe, 0xb2, 0x0b, 0x90, 0x3d, 
	0x9e, 0x5d, 0xdf, 0x3e, 0x43, 0x49, 0x3f, 0x3d, 0xa6, 0x43, 0x88, 0xbd, 
	0xe4, 0x58, 0x51, 0xbd, 0x89, 0xb3, 0x1c, 0x3c, 0x90, 0x22, 0xd0, 0xbe, 
	0x3e, 0x65, 0xa9, 0xbe, 0x8b, 0xfd, 0x2e, 0xbd, 0x97, 0x91, 0xd9, 0x3d, 
	0x27, 0x57, 0x3c, 0xbc, 0x42, 0xc8, 0x4a, 0x3d, 0x80, 0x2f, 0x4e, 0xbd, 
	0x4a, 0x45, 0x06, 0xbd, 0x87, 0x46, 0x4b, 0xbd, 0x30, 0x5e, 0x85, 0xbd, 
	0xe8, 0x40, 0x97, 0x3e, 0xa6, 0xe0, 0xb1, 0x3e, 0x42, 0x7d, 0xc2, 0x3d, 
	0x2a, 0xfa, 0xc2, 0x3d, 0x2f, 0xc8, 0x14, 0xbe, 0x2d, 0x23, 0x91, 0x3e, 
	0x40, 0x28, 0x0c, 0x3e, 0xb1, 0xed, 0x52, 0xbd, 0xca, 0x0a, 0xb4, 0xba, 
	0x5e, 0x6c, 0x5e, 0xbd, 0xdc, 0x06, 0x80, 0x3d, 0xc5, 0x9a, 0x24, 0xbd, 
	0x8c, 0xbc, 0x48, 0x3e, 0x42, 0x67, 0xb5, 0x3d, 0x8e, 0x5c, 0xa0, 0x3c, 
	0x8d, 0x9b, 0x97, 0x3e, 0x90, 0x79, 0x60, 0x3d, 0xe8, 0xe6, 0x79, 0x3e, 
	0x9d, 0xc2, 0x5a, 0x3e, 0x6e, 0xfd, 0x00, 0xbe, 0x64, 0x74, 0x90, 0x3d, 
	0xae, 0x7a, 0x8f, 0x3d, 0x34, 0xe6, 0x44, 0xbd, 0x7f, 0xb3, 0x83, 0x3e, 
	0x57, 0x0b, 0x24, 0x3e, 0xd1, 0xf2, 0xf0, 0x3c, 0xa3, 0xf3, 0x79, 0x3d, 
	0xdf, 0x8e, 0xc4, 0xbd, 0x94, 0x4e, 0x90, 0x3e, 0xd1, 0xa6, 0xd5, 0xbe, 
	0xac, 0xbc, 0x42, 0xbe, 0x0a, 0x0d, 0x03, 0xbf, 0xcd, 0x93, 0x80, 0xbc, 
	0xdc, 0xb2, 0xcb, 0xbc, 0x59, 0xc4, 0xf6, 0x3d, 0xfc, 0xd0, 0xb8, 0xbb, 
	0x99, 0xa5, 0x95, 0x3e, 0x38, 0xdd, 0x1b, 0x3e, 0x75, 0x7e, 0xd1, 0xbe, 
	0xb4, 0x64, 0x00, 0x3e, 0x1c, 0xb9, 0x91, 0xbe, 0x66, 0x7a, 0xe4, 0x3b, 
	0xba, 0x05, 0xb8, 0xbe, 0xa9, 0x2e, 0x99, 0x3d, 0x46, 0x12, 0x43, 0x3e, 
	0x9e, 0x37, 0xa2, 0x3c, 0xa7, 0xa2, 0x80, 0x3e, 0x96, 0xfc, 0xff, 0xff, 
	0x04, 0x00, 0x00, 0x00, 0xa0, 0x00, 0x00, 0x00, 0x83, 0xb1, 0x2a, 0xbf, 
	0x9d, 0xc8, 0x3b, 0xbf, 0x46, 0xf7, 0x19, 0xbf, 0x44, 0x8a, 0x8f, 0x3d, 
	0xef, 0xa2, 0x3a, 0x3d, 0xe9, 0x2b, 0x63, 0x3f, 0xfa, 0x90, 0xf4, 0x3e, 
	0xfd, 0xfd, 0xa1, 0xbe, 0xc4, 0xe5, 0x58, 0xbe, 0xbb, 0x7e, 0x0a, 0x3e, 
	0x6a, 0xaf, 0x41, 0xbf, 0x3b, 0xf4, 0xea, 0x3d, 0x73, 0xd2, 0x91, 0xbd, 
	0xbb, 0x41, 0xb4, 0x3d, 0xb6, 0x31, 0xb7, 0xbe, 0x75, 0xb2, 0x55, 0xbf, 
	0xde, 0x1d, 0x60, 0xbf, 0xf6, 0xb3, 0x3d, 0x3e, 0x33, 0x0a, 0x90, 0xbe, 
	0xcb, 0xa9, 0x31, 0xbf, 0xbf, 0x06, 0x3e, 0x3f, 0xc0, 0xc8, 0x41, 0x3f, 
	0x62, 0xad, 0xd8, 0x3d, 0x11, 0x26, 0x1d, 0xbf, 0x72, 0x3e, 0x60, 0x3f, 
	0xfe, 0x29, 0xc5, 0xbe, 0x4b, 0xce, 0xa1, 0x3e, 0x3d, 0x8a, 0x14, 0x3f, 
	0xe6, 0xbf, 0xe3, 0xbe, 0xe0, 0xd6, 0x13, 0x3f, 0x03, 0xe8, 0x6e, 0x3e, 
	0x93, 0xf3, 0x8c, 0x3e, 0x80, 0xa0, 0x83, 0x3f, 0x72, 0x2a, 0x8b, 0x3f, 
	0xa7, 0xe9, 0x50, 0x3d, 0x2d, 0x60, 0xa8, 0xbe, 0xb5, 0xfb, 0x59, 0x3f, 
	0x34, 0xe5, 0x00, 0x3f, 0x5f, 0xa6, 0x7d, 0x3f, 0x88, 0x96, 0xe6, 0xbd, 
	0x42, 0xfd, 0xff, 0xff, 0x04, 0x00, 0x00, 0x00, 0x80, 0x02, 0x00, 0x00, 
	0x19, 0x13, 0xcc, 0xbc, 0x93, 0xdb, 0xab, 0xbe, 0xd5, 0x48, 0x30, 0xbd, 
	0x4f, 0xbb, 0xee, 0xbe, 0xc5, 0xac, 0xd1, 0x3c, 0x27, 0x23, 0xe9, 0xbe, 
	0x06, 0x51, 0x83, 0x3e, 0xae, 0x3c, 0x97, 0xbe, 0x38, 0x7d, 0x7f, 0x3e, 
	0xd0, 0xb0, 0x41, 0xbf, 0xd4, 0x4f, 0x5e, 0xbe, 0x37, 0x88, 0x92, 0xbe, 
	0x9a, 0x93, 0xd6, 0x3e, 0xfb, 0x4f, 0xe4, 0xbe, 0xf2, 0x11, 0x8c, 0x3e, 
	0x69, 0x0d, 0x0e, 0x3c, 0x34, 0x37, 0xc2, 0x3e, 0x73, 0x10, 0xd3, 0xbe, 
	0x67, 0x56, 0xea, 0xbe, 0xcf, 0x42, 0x20, 0xbe, 0x68, 0x95, 0xcf, 0xbe, 
	0xb3, 0x69, 0x53, 0x3e, 0xc1, 0x6d, 0x64, 0x3f, 0xe3, 0x34, 0xfe, 0x3c, 
	0xb2, 0x70, 0x2b, 0x3e, 0xa7, 0xe4, 0x36, 0xbf, 0x77, 0x4c, 0xdb, 0xbe, 
	0x46, 0x4a, 0xa9, 0xbe, 0x8c, 0x00, 0x85, 0x3e, 0x69, 0x5e, 0x31, 0x3e, 
	0x18, 0x07, 0x0f, 0x3f, 0x90, 0x61, 0x62, 0x3d, 0x91, 0x90, 0x74, 0x3d, 
	0xee, 0x26, 0x0d, 0xbf, 0xd8, 0x95, 0x07, 0xbf, 0x73, 0xba, 0x85, 0xbe, 
	0xbc, 0xa1, 0x96, 0xbe, 0x22, 0xf9, 0xf8, 0xbd, 0x35, 0x56, 0x89, 0x3e, 
	0x07, 0xc1, 0x40, 0xbf, 0xcf, 0xd6, 0x67, 0x3e, 0x67, 0x1e, 0x2b, 0xbf, 
	0xd3, 0xc6, 0x77, 0xbe, 0xd5, 0xff, 0x2a, 0xbf, 0xc2, 0x33, 0xac, 0x3e, 
	0xa4, 0x15, 0x9e, 0x3d, 0xc4, 0x8c, 0x1c, 0xbf, 0x0c, 0x3f, 0xc9, 0xbe, 
	0xbe, 0x1d, 0x75, 0x3e, 0x76, 0x7b, 0x2f, 0xbe, 0xb0, 0x3e, 0xed, 0xbe, 
	0x53, 0xfd, 0xd6, 0xbe, 0xa3, 0xcb, 0x50, 0xbe, 0xe4, 0xad, 0x8b, 0xbe, 
	0xd6, 0x66, 0x70, 0xbf, 0x90, 0x36, 0x88, 0xbf, 0xbc, 0x2e, 0x6e, 0x3e, 
	0x60, 0x7d, 0xd4, 0x3e, 0x73, 0xed, 0x25, 0xbf, 0x02, 0x8c, 0xef, 0xbe, 
	0xab, 0x50, 0x51, 0xbe, 0x34, 0x1c, 0x36, 0xbe, 0x30, 0xd0, 0x16, 0xbf, 
	0x06, 0x61, 0x58, 0xbf, 0x7c, 0xaa, 0xf6, 0x3e, 0x7e, 0x37, 0x42, 0xbf, 
	0x63, 0x65, 0xf0, 0x3e, 0x56, 0x5e, 0x03, 0xbf, 0x24, 0x6b, 0x99, 0xbd, 
	0x32, 0xa5, 0x86, 0xbe, 0xb3, 0xe8, 0x0a, 0xbe, 0xd1, 0x3d, 0x06, 0x3f, 
	0xdf, 0xf8, 0xaf, 0xbd, 0xd7, 0xdc, 0x8e, 0xbe, 0x52, 0xe9, 0xf1, 0x3e, 
	0x5f, 0x2c, 0x18, 0x3c, 0x47, 0x95, 0xa3, 0x3e, 0xae, 0xb4, 0xc2, 0x3e, 
	0x5f, 0x9d, 0x68, 0x3e, 0x29, 0x26, 0x02, 0x3e, 0xf4, 0xfa, 0x20, 0xbd, 
	0x3a, 0x02, 0x9b, 0x3e, 0xad, 0x92, 0x5f, 0x3f, 0xa4, 0x9e, 0x8f, 0x3e, 
	0xca, 0xbc, 0x38, 0xbd, 0x70, 0x96, 0x16, 0x3e, 0x24, 0x11, 0x96, 0xbe, 
	0xee, 0xd1, 0xfe, 0x3d, 0x72, 0x5c, 0x4b, 0xbe, 0x8d, 0xbe, 0x36, 0x3d, 
	0x82, 0x81, 0x8e, 0x3e, 0xdd, 0x2e, 0xfe, 0xbc, 0x22, 0x36, 0xd1, 0x3b, 
	0x0f, 0x64, 0x68, 0xbe, 0xc1, 0x94, 0x2c, 0xbf, 0xaa, 0x47, 0x6b, 0xbe, 
	0x7b, 0xfc, 0x02, 0x3f, 0x11, 0x75, 0xbc, 0xbe, 0x37, 0x80, 0x0e, 0x3f, 
	0x12, 0x25, 0x2f, 0xbf, 0x72, 0x8f, 0xb3, 0x3d, 0xf8, 0x1f, 0xba, 0xbe, 
	0x3c, 0x28, 0x97, 0xbe, 0xb4, 0x13, 0xea, 0xbe, 0x42, 0xeb, 0x09, 0x3f, 
	0x46, 0xe5, 0xc1, 0xbe, 0x8b, 0x96, 0x41, 0x3e, 0x11, 0x9f, 0x97, 0x3e, 
	0xca, 0x57, 0x4d, 0xbe, 0xa6, 0x96, 0x80, 0x3e, 0x03, 0xb5, 0xa2, 0xbe, 
	0x92, 0x52, 0x3b, 0xbf, 0xdf, 0xc6, 0xab, 0xbe, 0x4e, 0x60, 0x82, 0xbe, 
	0x49, 0x38, 0xc5, 0xbd, 0x57, 0x19, 0x15, 0xbe, 0xde, 0x2a, 0x73, 0xbe, 
	0x31, 0x9d, 0xa1, 0xbd, 0x69, 0x54, 0x30, 0x3f, 0xa9, 0x0b, 0xef, 0xbe, 
	0x65, 0x20, 0xaa, 0xbe, 0x15, 0x34, 0x44, 0xbe, 0x76, 0x4e, 0x4c, 0xbf, 
	0xeb, 0xf9, 0x53, 0xbe, 0xea, 0x1a, 0xc3, 0xbe, 0x6d, 0x83, 0xa4, 0xbe, 
	0xfa, 0x73, 0x8c, 0xbe, 0x64, 0x20, 0x48, 0xbe, 0xef, 0x7c, 0xe9, 0x3e, 
	0xbb, 0xf7, 0x90, 0xbe, 0xcc, 0x4b, 0x36, 0xbe, 0xd0, 0x03, 0xd5, 0xbe, 
	0xeb, 0x7d, 0xeb, 0xbe, 0x5d, 0x68, 0xe0, 0xbe, 0x81, 0x26, 0xce, 0xbe, 
	0x84, 0xe4, 0x9e, 0xbe, 0x97, 0x79, 0xcf, 0x3e, 0xb5, 0x21, 0xed, 0xbe, 
	0x07, 0x5e, 0x67, 0xbe, 0xf7, 0x6c, 0x8e, 0x3e, 0xac, 0xc6, 0xae, 0xbe, 
	0x78, 0xf9, 0x9c, 0xbe, 0x6f, 0x5c, 0x3b, 0xbf, 0x1c, 0xdf, 0x07, 0xbf, 
	0x5f, 0x9d, 0x8d, 0xbe, 0x46, 0x14, 0x96, 0xbe, 0xba, 0xa0, 0x70, 0x3b, 
	0x34, 0x31, 0x1f, 0xbf, 0xbc, 0x58, 0x9c, 0x3c, 0x35, 0xad, 0x30, 0x3e, 
	0x7c, 0x10, 0x9e, 0xbe, 0x0c, 0xb1, 0x89, 0xbe, 0x33, 0x82, 0xea, 0xbe, 
	0xc4, 0xbf, 0x90, 0xbe, 0xf4, 0x6d, 0x10, 0x3f, 0x7e, 0x9a, 0xf4, 0xbc, 
	0xe2, 0xd7, 0xe0, 0xbe, 0x3c, 0x07, 0xb2, 0x3e, 0x74, 0x10, 0xd7, 0xbe, 
	0xc4, 0xce, 0x85, 0x3e, 0xce, 0xff, 0xff, 0xff, 0x04, 0x00, 0x00, 0x00, 
	0x08, 0x00, 0x00, 0x00, 0xff, 0xff, 0xff, 0xff, 0x10, 0x00, 0x00, 0x00, 
	0xe2, 0xff, 0xff, 0xff, 0x04, 0x00, 0x00, 0x00, 0x10, 0x00, 0x00, 0x00, 
	0x22, 0x6a, 0x1a, 0x3e, 0x09, 0x31, 0x18, 0x3d, 0x5f, 0xc7, 0x01, 0xbd, 
	0x4e, 0x8b, 0x43, 0x3c, 0x00, 0x00, 0x06, 0x00, 0x08, 0x00, 0x04, 0x00, 
	0x06, 0x00, 0x00, 0x00, 0x04, 0x00, 0x00, 0x00, 0x20, 0x00, 0x00, 0x00, 
	0x27, 0x0a, 0x13, 0x3e, 0xa9, 0x03, 0xb4, 0x3c, 0x4b, 0xa0, 0x9a, 0x3d, 
	0x4e, 0x02, 0xcf, 0xbd, 0xc3, 0xe0, 0x13, 0xbc, 0x04, 0xaf, 0xe3, 0xbc, 
	0x65, 0xbe, 0x54, 0x3d, 0x71, 0x27, 0x58, 0xbc, 0x0c, 0xf7, 0xff, 0xff, 
	0x10, 0xf7, 0xff, 0xff, 0x0f, 0x00, 0x00, 0x00, 0x4d, 0x4c, 0x49, 0x52, 
	0x20, 0x43, 0x6f, 0x6e, 0x76, 0x65, 0x72, 0x74, 0x65, 0x64, 0x2e, 0x00, 
	0x01, 0x00, 0x00, 0x00, 0x14, 0x00, 0x00, 0x00, 0x00, 0x00, 0x0e, 0x00, 
	0x18, 0x00, 0x14, 0x00, 0x10, 0x00, 0x0c, 0x00, 0x08, 0x00, 0x04, 0x00, 
	0x0e, 0x00, 0x00, 0x00, 0x14, 0x00, 0x00, 0x00, 0x1c, 0x00, 0x00, 0x00, 
	0x0c, 0x02, 0x00, 0x00, 0x10, 0x02, 0x00, 0x00, 0x14, 0x02, 0x00, 0x00, 
	0x04, 0x00, 0x00, 0x00, 0x6d, 0x61, 0x69, 0x6e, 0x00, 0x00, 0x00, 0x00, 
	0x07, 0x00, 0x00, 0x00, 0xa4, 0x01, 0x00, 0x00, 0x40, 0x01, 0x00, 0x00, 
	0xec, 0x00, 0x00, 0x00, 0xa8, 0x00, 0x00, 0x00, 0x80, 0x00, 0x00, 0x00, 
	0x3c, 0x00, 0x00, 0x00, 0x04, 0x00, 0x00, 0x00, 0xe6, 0xfe, 0xff, 0xff, 
	0x14, 0x00, 0x00, 0x00, 0x00, 0x00, 0x00, 0x08, 0x10, 0x00, 0x00, 0x00, 
	0x14, 0x00, 0x00, 0x00, 0x03, 0x00, 0x00, 0x00, 0x9c, 0xf7, 0xff, 0xff, 
	0x01, 0x00, 0x00, 0x00, 0x0f, 0x00, 0x00, 0x00, 0x03, 0x00, 0x00, 0x00, 
	0x0e, 0x00, 0x00, 0x00, 0x05, 0x00, 0x00, 0x00, 0x08, 0x00, 0x00, 0x00, 
	0x1a, 0xff, 0xff, 0xff, 0x14, 0x00, 0x00, 0x00, 0x00, 0x00, 0x00, 0x08, 
	0x10, 0x00, 0x00, 0x00, 0x14, 0x00, 0x00, 0x00, 0x03, 0x00, 0x00, 0x00, 
	0xd0, 0xf7, 0xff, 0xff, 0x01, 0x00, 0x00, 0x00, 0x0e, 0x00, 0x00, 0x00, 
	0x03, 0x00, 0x00, 0x00, 0x0d, 0x00, 0x00, 0x00, 0x04, 0x00, 0x00, 0x00, 
	0xff, 0xff, 0xff, 0xff, 0x00, 0x00, 0x0a, 0x00, 0x10, 0x00, 0x0c, 0x00, 
	0x08, 0x00, 0x04, 0x00, 0x0a, 0x00, 0x00, 0x00, 0x0c, 0x00, 0x00, 0x00, 
	0x10, 0x00, 0x00, 0x00, 0x02, 0x00, 0x00, 0x00, 0x01, 0x00, 0x00, 0x00, 
	0x0d, 0x00, 0x00, 0x00, 0x02, 0x00, 0x00, 0x00, 0x0c, 0x00, 0x00, 0x00, 
	0x03, 0x00, 0x00, 0x00, 0x7e, 0xff, 0xff, 0xff, 0x14, 0x00, 0x00, 0x00, 
	0x00, 0x00, 0x00, 0x05, 0x24, 0x00, 0x00, 0x00, 0x28, 0x00, 0x00, 0x00, 
	0x01, 0x00, 0x00, 0x00, 0x6e, 0xff, 0xff, 0xff, 0x02, 0x00, 0x00, 0x00, 
	0x02, 0x00, 0x00, 0x00, 0x02, 0x00, 0x00, 0x00, 0x02, 0x00, 0x00, 0x00, 
	0x00, 0x00, 0x00, 0x01, 0x01, 0x00, 0x00, 0x00, 0x0c, 0x00, 0x00, 0x00, 
	0x01, 0x00, 0x00, 0x00, 0x0b, 0x00, 0x00, 0x00, 0x5e, 0xff, 0xff, 0xff, 
	0x10, 0x00, 0x00, 0x00, 0x00, 0x00, 0x00, 0x01, 0x1c, 0x00, 0x00, 0x00, 
	0x20, 0x00, 0x00, 0x00, 0x50, 0xff, 0xff, 0xff, 0x00, 0x00, 0x00, 0x01, 
	0x01, 0x00, 0x00, 0x00, 0x01, 0x00, 0x00, 0x00, 0x00, 0x00, 0x00, 0x01, 
	0x01, 0x00, 0x00, 0x00, 0x0b, 0x00, 0x00, 0x00, 0x03, 0x00, 0x00, 0x00, 
	0x0a, 0x00, 0x00, 0x00, 0x07, 0x00, 0x00, 0x00, 0x01, 0x00, 0x00, 0x00, 
	0x00, 0x00, 0x0e, 0x00, 0x1a, 0x00, 0x14, 0x00, 0x10, 0x00, 0x0c, 0x00, 
	0x0b, 0x00, 0x04, 0x00, 0x0e, 0x00, 0x00, 0x00, 0x24, 0x00, 0x00, 0x00, 
	0x00, 0x00, 0x00, 0x05, 0x34, 0x00, 0x00, 0x00, 0x38, 0x00, 0x00, 0x00, 
	0x01, 0x00, 0x00, 0x00, 0x00, 0x00, 0x0e, 0x00, 0x18, 0x00, 0x17, 0x00, 
	0x10, 0x00, 0x0c, 0x00, 0x08, 0x00, 0x04, 0x00, 0x0e, 0x00, 0x00, 0x00, 
	0x02, 0x00, 0x00, 0x00, 0x02, 0x00, 0x00, 0x00, 0x02, 0x00, 0x00, 0x00, 
	0x02, 0x00, 0x00, 0x00, 0x00, 0x00, 0x00, 0x01, 0x01, 0x00, 0x00, 0x00, 
	0x0a, 0x00, 0x00, 0x00, 0x01, 0x00, 0x00, 0x00, 0x09, 0x00, 0x00, 0x00, 
	0x00, 0x00, 0x0e, 0x00, 0x14, 0x00, 0x00, 0x00, 0x10, 0x00, 0x0c, 0x00, 
	0x0b, 0x00, 0x04, 0x00, 0x0e, 0x00, 0x00, 0x00, 0x1c, 0x00, 0x00, 0x00, 
	0x00, 0x00, 0x00, 0x01, 0x28, 0x00, 0x00, 0x00, 0x2c, 0x00, 0x00, 0x00, 
	0x0c, 0x00, 0x14, 0x00, 0x13, 0x00, 0x0c, 0x00, 0x08, 0x00, 0x07, 0x00, 
	0x0c, 0x00, 0x00, 0x00, 0x00, 0x00, 0x00, 0x01, 0x01, 0x00, 0x00, 0x00, 
	0x01, 0x00, 0x00, 0x00, 0x00, 0x00, 0x00, 0x01, 0x01, 0x00, 0x00, 0x00, 
	0x09, 0x00, 0x00, 0x00, 0x03, 0x00, 0x00, 0x00, 0x00, 0x00, 0x00, 0x00, 
	0x06, 0x00, 0x00, 0x00, 0x02, 0x00, 0x00, 0x00, 0x01, 0x00, 0x00, 0x00, 
	0x0f, 0x00, 0x00, 0x00, 0x01, 0x00, 0x00, 0x00, 0x00, 0x00, 0x00, 0x00, 
	0x10, 0x00, 0x00, 0x00, 0x68, 0x06, 0x00, 0x00, 0xfc, 0x05, 0x00, 0x00, 
	0x94, 0x05, 0x00, 0x00, 0x48, 0x05, 0x00, 0x00, 0xf0, 0x04, 0x00, 0x00, 
	0xa8, 0x04, 0x00, 0x00, 0x54, 0x04, 0x00, 0x00, 0x00, 0x04, 0x00, 0x00, 
	0x9c, 0x03, 0x00, 0x00, 0xcc, 0x02, 0x00, 0x00, 0x58, 0x02, 0x00, 0x00, 
	0x88, 0x01, 0x00, 0x00, 0x14, 0x01, 0x00, 0x00, 0xb8, 0x00, 0x00, 0x00, 
	0x5c, 0x00, 0x00, 0x00, 0x04, 0x00, 0x00, 0x00, 0xec, 0xf9, 0xff, 0xff, 
	0x14, 0x00, 0x00, 0x00, 0x1c, 0x00, 0x00, 0x00, 0x1c, 0x00, 0x00, 0x00, 
	0x10, 0x00, 0x00, 0x00, 0x34, 0x00, 0x00, 0x00, 0x02, 0x00, 0x00, 0x00, 
	0xff, 0xff, 0xff, 0xff, 0x04, 0x00, 0x00, 0x00, 0xd0, 0xf9, 0xff, 0xff, 
	0x19, 0x00, 0x00, 0x00, 0x53, 0x74, 0x61, 0x74, 0x65, 0x66, 0x75, 0x6c, 
	0x50, 0x61, 0x72, 0x74, 0x69, 0x74, 0x69, 0x6f, 0x6e, 0x65, 0x64, 0x43, 
	0x61, 0x6c, 0x6c, 0x3a, 0x30, 0x00, 0x00, 0x00, 0x02, 0x00, 0x00, 0x00, 
	0x01, 0x00, 0x00, 0x00, 0x04, 0x00, 0x00, 0x00, 0x40, 0xfa, 0xff, 0xff, 
	0x14, 0x00, 0x00, 0x00, 0x1c, 0x00, 0x00, 0x00, 0x1c, 0x00, 0x00, 0x00, 
	0x0f, 0x00, 0x00, 0x00, 0x38, 0x00, 0x00, 0x00, 0x02, 0x00, 0x00, 0x00, 
	0xff, 0xff, 0xff, 0xff, 0x0a, 0x00, 0x00, 0x00, 0x24, 0xfa, 0xff, 0xff, 
	0x1c, 0x00, 0x00, 0x00, 0x73, 0x65, 0x71, 0x75, 0x65, 0x6e, 0x74, 0x69, 
	0x61, 0x6c, 0x5f, 0x33, 0x2f, 0x64, 0x65, 0x6e, 0x73, 0x65, 0x5f, 0x34, 
	0x2f, 0x4d, 0x61, 0x74, 0x4d, 0x75, 0x6c, 0x31, 0x00, 0x00, 0x00, 0x00, 
	0x02, 0x00, 0x00, 0x00, 0x01, 0x00, 0x00, 0x00, 0x0a, 0x00, 0x00, 0x00, 
	0x98, 0xfa, 0xff, 0xff, 0x14, 0x00, 0x00, 0x00, 0x1c, 0x00, 0x00, 0x00, 
	0x1c, 0x00, 0x00, 0x00, 0x0e, 0x00, 0x00, 0x00, 0x38, 0x00, 0x00, 0x00, 
	0x02, 0x00, 0x00, 0x00, 0xff, 0xff, 0xff, 0xff, 0x10, 0x00, 0x00, 0x00, 
	0x7c, 0xfa, 0xff, 0xff, 0x1e, 0x00, 0x00, 0x00, 0x73, 0x65, 0x71, 0x75, 
	0x65, 0x6e, 0x74, 0x69, 0x61, 0x6c, 0x5f, 0x33, 0x2f, 0x66, 0x6c, 0x61, 
	0x74, 0x74, 0x65, 0x6e, 0x5f, 0x32, 0x2f, 0x52, 0x65, 0x73, 0x68, 0x61, 
	0x70, 0x65, 0x00, 0x00, 0x02, 0x00, 0x00, 0x00, 0x01, 0x00, 0x00, 0x00, 
	0x10, 0x00, 0x00, 0x00, 0xf0, 0xfa, 0xff, 0xff, 0x14, 0x00, 0x00, 0x00, 
	0x24, 0x00, 0x00, 0x00, 0x24, 0x00, 0x00, 0x00, 0x0d, 0x00, 0x00, 0x00, 
	0x48, 0x00, 0x00, 0x00, 0x04, 0x00, 0x00, 0x00, 0xff, 0xff, 0xff, 0xff, 
	0x02, 0x00, 0x00, 0x00, 0x01, 0x00, 0x00, 0x00, 0x08, 0x00, 0x00, 0x00, 
	0xdc, 0xfa, 0xff, 0xff, 0x24, 0x00, 0x00, 0x00, 0x73, 0x65, 0x71, 0x75, 
	0x65, 0x6e, 0x74, 0x69, 0x61, 0x6c, 0x5f, 0x33, 0x2f, 0x6d, 0x61, 0x78, 
	0x5f, 0x70, 0x6f, 0x6f, 0x6c, 0x69, 0x6e, 0x67, 0x32, 0x64, 0x5f, 0x34, 
	0x2f, 0x4d, 0x61, 0x78, 0x50, 0x6f, 0x6f, 0x6c, 0x00, 0x00, 0x00, 0x00, 
	0x04, 0x00, 0x00, 0x00, 0x01, 0x00, 0x00, 0x00, 0x02, 0x00, 0x00, 0x00, 
	0x01, 0x00, 0x00, 0x00, 0x08, 0x00, 0x00, 0x00, 0x60, 0xfb, 0xff, 0xff, 
	0x14, 0x00, 0x00, 0x00, 0x24, 0x00, 0x00, 0x00, 0x24, 0x00, 0x00, 0x00, 
	0x0c, 0x00, 0x00, 0x00, 0xa4, 0x00, 0x00, 0x00, 0x04, 0x00, 0x00, 0x00, 
	0xff, 0xff, 0xff, 0xff, 0x04, 0x00, 0x00, 0x00, 0x02, 0x00, 0x00, 0x00, 
	0x08, 0x00, 0x00, 0x00, 0x4c, 0xfb, 0xff, 0xff, 0x82, 0x00, 0x00, 0x00, 
	0x73, 0x65, 0x71, 0x75, 0x65, 0x6e, 0x74, 0x69, 0x61, 0x6c, 0x5f, 0x33, 
	0x2f, 0x63, 0x6f, 0x6e, 0x76, 0x32, 0x64, 0x5f, 0x37, 0x2f, 0x52, 0x65, 
	0x6c, 0x75, 0x3b, 0x73, 0x65, 0x71, 0x75, 0x65, 0x6e, 0x74, 0x69, 0x61, 
	0x6c, 0x5f, 0x33, 0x2f, 0x63, 0x6f, 0x6e, 0x76, 0x32, 0x64, 0x5f, 0x37, 
	0x2f, 0x42, 0x69, 0x61, 0x73, 0x41, 0x64, 0x64, 0x3b, 0x73, 0x65, 0x71, 
	0x75, 0x65, 0x6e, 0x74, 0x69, 0x61, 0x6c, 0x5f, 0x33, 0x2f, 0x63, 0x6f, 
	0x6e, 0x76, 0x32, 0x64, 0x5f, 0x37, 0x2f, 0x43, 0x6f, 0x6e, 0x76, 0x32, 
	0x44, 0x3b, 0x73, 0x65, 0x71, 0x75, 0x65, 0x6e, 0x74, 0x69, 0x61, 0x6c, 
	0x5f, 0x33, 0x2f, 0x63, 0x6f, 0x6e, 0x76, 0x32, 0x64, 0x5f, 0x37, 0x2f, 
	0x42, 0x69, 0x61, 0x73, 0x41, 0x64, 0x64, 0x2f, 0x52, 0x65, 0x61, 0x64, 
	0x56, 0x61, 0x72, 0x69, 0x61, 0x62, 0x6c, 0x65, 0x4f, 0x70, 0x00, 0x00, 
	0x04, 0x00, 0x00, 0x00, 0x01, 0x00, 0x00, 0x00, 0x04, 0x00, 0x00, 0x00, 
	0x02, 0x00, 0x00, 0x00, 0x08, 0x00, 0x00, 0x00, 0x2c, 0xfc, 0xff, 0xff, 
	0x14, 0x00, 0x00, 0x00, 0x24, 0x00, 0x00, 0x00, 0x24, 0x00, 0x00, 0x00, 
	0x0b, 0x00, 0x00, 0x00, 0x48, 0x00, 0x00, 0x00, 0x04, 0x00, 0x00, 0x00, 
	0xff, 0xff, 0xff, 0xff, 0x06, 0x00, 0x00, 0x00, 0x04, 0x00, 0x00, 0x00, 
	0x04, 0x00, 0x00, 0x00, 0x18, 0xfc, 0xff, 0xff, 0x24, 0x00, 0x00, 0x00, 
	0x73, 0x65, 0x71, 0x75, 0x65, 0x6e, 0x74, 0x69, 0x61, 0x6c, 0x5f, 0x33, 
	0x2f, 0x6d, 0x61, 0x78, 0x5f, 0x70, 0x6f, 0x6f, 0x6c, 0x69, 0x6e, 0x67, 
	0x32, 0x64, 0x5f, 0x33, 0x2f, 0x4d, 0x61, 0x78, 0x50, 0x6f, 0x6f, 0x6c, 
	0x00, 0x00, 0x00, 0x00, 0x04, 0x00, 0x00, 0x00, 0x01, 0x00, 0x00, 0x00, 
	0x06, 0x00, 0x00, 0x00, 0x04, 0x00, 0x00, 0x00, 0x04, 0x00, 0x00, 0x00, 
	0x9c, 0xfc, 0xff, 0xff, 0x14, 0x00, 0x00, 0x00, 0x24, 0x00, 0x00, 0x00, 
	0x24, 0x00, 0x00, 0x00, 0x0a, 0x00, 0x00, 0x00, 0xa4, 0x00, 0x00, 0x00, 
	0x04, 0x00, 0x00, 0x00, 0xff, 0xff, 0xff, 0xff, 0x0d, 0x00, 0x00, 0x00, 
	0x08, 0x00, 0x00, 0x00, 0x04, 0x00, 0x00, 0x00, 0x88, 0xfc, 0xff, 0xff, 
	0x82, 0x00, 0x00, 0x00, 0x73, 0x65, 0x71, 0x75, 0x65, 0x6e, 0x74, 0x69, 
	0x61, 0x6c, 0x5f, 0x33, 0x2f, 0x63, 0x6f, 0x6e, 0x76, 0x32, 0x64, 0x5f, 
	0x36, 0x2f, 0x52, 0x65, 0x6c, 0x75, 0x3b, 0x73, 0x65, 0x71, 0x75, 0x65, 
	0x6e, 0x74, 0x69, 0x61, 0x6c, 0x5f, 0x33, 0x2f, 0x63, 0x6f, 0x6e, 0x76, 
	0x32, 0x64, 0x5f, 0x36, 0x2f, 0x42, 0x69, 0x61, 0x73, 0x41, 0x64, 0x64, 
	0x3b, 0x73, 0x65, 0x71, 0x75, 0x65, 0x6e, 0x74, 0x69, 0x61, 0x6c, 0x5f, 
	0x33, 0x2f, 0x63, 0x6f, 0x6e, 0x76, 0x32, 0x64, 0x5f, 0x36, 0x2f, 0x43, 
	0x6f, 0x6e, 0x76, 0x32, 0x44, 0x3b, 0x73, 0x65, 0x71, 0x75, 0x65, 0x6e, 
	0x74, 0x69, 0x61, 0x6c, 0x5f, 0x33, 0x2f, 0x63, 0x6f, 0x6e, 0x76, 0x32, 
	0x64, 0x5f, 0x36, 0x2f, 0x42, 0x69, 0x61, 0x73, 0x41, 0x64, 0x64, 0x2f, 
	0x52, 0x65, 0x61, 0x64, 0x56, 0x61, 0x72, 0x69, 0x61, 0x62, 0x6c, 0x65, 
	0x4f, 0x70, 0x00, 0x00, 0x04, 0x00, 0x00, 0x00, 0x01, 0x00, 0x00, 0x00, 
	0x0d, 0x00, 0x00, 0x00, 0x08, 0x00, 0x00, 0x00, 0x04, 0x00, 0x00, 0x00, 
	0xca, 0xfd, 0xff, 0xff, 0x10, 0x00, 0x00, 0x00, 0x10, 0x00, 0x00, 0x00, 
	0x09, 0x00, 0x00, 0x00, 0x48, 0x00, 0x00, 0x00, 0x3c, 0xfd, 0xff, 0xff, 
	0x38, 0x00, 0x00, 0x00, 0x73, 0x65, 0x71, 0x75, 0x65, 0x6e, 0x74, 0x69, 
	0x61, 0x6c, 0x5f, 0x33, 0x2f, 0x64, 0x65, 0x6e, 0x73, 0x65, 0x5f, 0x35, 
	0x2f, 0x4d, 0x61, 0x74, 0x4d, 0x75, 0x6c, 0x3b, 0x73, 0x65, 0x71, 0x75, 
	0x65, 0x6e, 0x74, 0x69, 0x61, 0x6c, 0x5f, 0x33, 0x2f, 0x64, 0x65, 0x6e, 
	0x73, 0x65, 0x5f, 0x35, 0x2f, 0x42, 0x69, 0x61, 0x73, 0x41, 0x64, 0x64, 
	0x00, 0x00, 0x00, 0x00, 0x01, 0x00, 0x00, 0x00, 0x04, 0x00, 0x00, 0x00, 
	0x2a, 0xfe, 0xff, 0xff, 0x10, 0x00, 0x00, 0x00, 0x10, 0x00, 0x00, 0x00, 
	0x08, 0x00, 0x00, 0x00, 0x2c, 0x00, 0x00, 0x00, 0x9c, 0xfd, 0xff, 0xff, 
	0x1c, 0x00, 0x00, 0x00, 0x73, 0x65, 0x71, 0x75, 0x65, 0x6e, 0x74, 0x69, 
	0x61, 0x6c, 0x5f, 0x33, 0x2f, 0x63, 0x6f, 0x6e, 0x76, 0x32, 0x64, 0x5f, 
	0x37, 0x2f, 0x43, 0x6f, 0x6e, 0x76, 0x32, 0x44, 0x00, 0x00, 0x00, 0x00, 
	0x04, 0x00, 0x00, 0x00, 0x08, 0x00, 0x00, 0x00, 0x03, 0x00, 0x00, 0x00, 
	0x03, 0x00, 0x00, 0x00, 0x04, 0x00, 0x00, 0x00, 0x7a, 0xfe, 0xff, 0xff, 
	0x10, 0x00, 0x00, 0x00, 0x10, 0x00, 0x00, 0x00, 0x07, 0x00, 0x00, 0x00, 
	0x2c, 0x00, 0x00, 0x00, 0xec, 0xfd, 0xff, 0xff, 0x1c, 0x00, 0x00, 0x00, 
	0x73, 0x65, 0x71, 0x75, 0x65, 0x6e, 0x74, 0x69, 0x61, 0x6c, 0x5f, 0x33, 
	0x2f, 0x63, 0x6f, 0x6e, 0x76, 0x32, 0x64, 0x5f, 0x36, 0x2f, 0x43, 0x6f, 
	0x6e, 0x76, 0x32, 0x44, 0x00, 0x00, 0x00, 0x00, 0x04, 0x00, 0x00, 0x00, 
	0x04, 0x00, 0x00, 0x00, 0x03, 0x00, 0x00, 0x00, 0x03, 0x00, 0x00, 0x00, 
	0x03, 0x00, 0x00, 0x00, 0xca, 0xfe, 0xff, 0xff, 0x10, 0x00, 0x00, 0x00, 
	0x10, 0x00, 0x00, 0x00, 0x06, 0x00, 0x00, 0x00, 0x28, 0x00, 0x00, 0x00, 
	0x3c, 0xfe, 0xff, 0xff, 0x1b, 0x00, 0x00, 0x00, 0x73, 0x65, 0x71, 0x75, 
	0x65, 0x6e, 0x74, 0x69, 0x61, 0x6c, 0x5f, 0x33, 0x2f, 0x64, 0x65, 0x6e, 
	0x73, 0x65, 0x5f, 0x35, 0x2f, 0x4d, 0x61, 0x74, 0x4d, 0x75, 0x6c, 0x00, 
	0x02, 0x00, 0x00, 0x00, 0x04, 0x00, 0x00, 0x00, 0x0a, 0x00, 0x00, 0x00, 
	0x0e, 0xff, 0xff, 0xff, 0x10, 0x00, 0x00, 0x00, 0x10, 0x00, 0x00, 0x00, 
	0x05, 0x00, 0x00, 0x00, 0x28, 0x00, 0x00, 0x00, 0x80, 0xfe, 0xff, 0xff, 
	0x1b, 0x00, 0x00, 0x00, 0x73, 0x65, 0x71, 0x75, 0x65, 0x6e, 0x74, 0x69, 
	0x61, 0x6c, 0x5f, 0x33, 0x2f, 0x64, 0x65, 0x6e, 0x73, 0x65, 0x5f, 0x34, 
	0x2f, 0x4d, 0x61, 0x74, 0x4d, 0x75, 0x6c, 0x00, 0x02, 0x00, 0x00, 0x00, 
	0x0a, 0x00, 0x00, 0x00, 0x10, 0x00, 0x00, 0x00, 0x00, 0x00, 0x0e, 0x00, 
	0x18, 0x00, 0x14, 0x00, 0x13, 0x00, 0x0c, 0x00, 0x08, 0x00, 0x04, 0x00, 
	0x0e, 0x00, 0x00, 0x00, 0x14, 0x00, 0x00, 0x00, 0x14, 0x00, 0x00, 0x00, 
	0x04, 0x00, 0x00, 0x00, 0x00, 0x00, 0x00, 0x02, 0x2c, 0x00, 0x00, 0x00, 
	0xd8, 0xfe, 0xff, 0xff, 0x1c, 0x00, 0x00, 0x00, 0x73, 0x65, 0x71, 0x75, 
	0x65, 0x6e, 0x74, 0x69, 0x61, 0x6c, 0x5f, 0x33, 0x2f, 0x66, 0x6c, 0x61, 
	0x74, 0x74, 0x65, 0x6e, 0x5f, 0x32, 0x2f, 0x43, 0x6f, 0x6e, 0x73, 0x74, 
	0x00, 0x00, 0x00, 0x00, 0x01, 0x00, 0x00, 0x00, 0x02, 0x00, 0x00, 0x00, 
	0xaa, 0xff, 0xff, 0xff, 0x10, 0x00, 0x00, 0x00, 0x10, 0x00, 0x00, 0x00, 
	0x03, 0x00, 0x00, 0x00, 0x3c, 0x00, 0x00, 0x00, 0x1c, 0xff, 0xff, 0xff, 
	0x2c, 0x00, 0x00, 0x00, 0x73, 0x65, 0x71, 0x75, 0x65, 0x6e, 0x74, 0x69, 
	0x61, 0x6c, 0x5f, 0x33, 0x2f, 0x63, 0x6f, 0x6e, 0x76, 0x32, 0x64, 0x5f, 
	0x36, 0x2f, 0x42, 0x69, 0x61, 0x73, 0x41, 0x64, 0x64, 0x2f, 0x52, 0x65, 
	0x61, 0x64, 0x56, 0x61, 0x72, 0x69, 0x61, 0x62, 0x6c, 0x65, 0x4f, 0x70, 
	0x00, 0x00, 0x00, 0x00, 0x01, 0x00, 0x00, 0x00, 0x04, 0x00, 0x00, 0x00, 
	0x00, 0x00, 0x0e, 0x00, 0x14, 0x00, 0x10, 0x00, 0x00, 0x00, 0x0c, 0x00, 
	0x08, 0x00, 0x04, 0x00, 0x0e, 0x00, 0x00, 0x00, 0x10, 0x00, 0x00, 0x00, 
	0x10, 0x00, 0x00, 0x00, 0x02, 0x00, 0x00, 0x00, 0x3c, 0x00, 0x00, 0x00, 
	0x80, 0xff, 0xff, 0xff, 0x2c, 0x00, 0x00, 0x00, 0x73, 0x65, 0x71, 0x75, 
	0x65, 0x6e, 0x74, 0x69, 0x61, 0x6c, 0x5f, 0x33, 0x2f, 0x63, 0x6f, 0x6e, 
	0x76, 0x32, 0x64, 0x5f, 0x37, 0x2f, 0x42, 0x69, 0x61, 0x73, 0x41, 0x64, 
	0x64, 0x2f, 0x52, 0x65, 0x61, 0x64, 0x56, 0x61, 0x72, 0x69, 0x61, 0x62, 
	0x6c, 0x65, 0x4f, 0x70, 0x00, 0x00, 0x00, 0x00, 0x01, 0x00, 0x00, 0x00, 
	0x08, 0x00, 0x00, 0x00, 0x14, 0x00, 0x18, 0x00, 0x14, 0x00, 0x00, 0x00, 
	0x10, 0x00, 0x0c, 0x00, 0x08, 0x00, 0x00, 0x00, 0x00, 0x00, 0x04, 0x00, 
	0x14, 0x00, 0x00, 0x00, 0x14, 0x00, 0x00, 0x00, 0x28, 0x00, 0x00, 0x00, 
	0x28, 0x00, 0x00, 0x00, 0x01, 0x00, 0x00, 0x00, 0x48, 0x00, 0x00, 0x00, 
	0x04, 0x00, 0x00, 0x00, 0xff, 0xff, 0xff, 0xff, 0x0f, 0x00, 0x00, 0x00, 
	0x0a, 0x00, 0x00, 0x00, 0x03, 0x00, 0x00, 0x00, 0x04, 0x00, 0x04, 0x00, 
	0x04, 0x00, 0x00, 0x00, 0x20, 0x00, 0x00, 0x00, 0x73, 0x65, 0x72, 0x76, 
	0x69, 0x6e, 0x67, 0x5f, 0x64, 0x65, 0x66, 0x61, 0x75, 0x6c, 0x74, 0x5f, 
	0x63, 0x6f, 0x6e, 0x76, 0x32, 0x64, 0x5f, 0x36, 0x5f, 0x69, 0x6e, 0x70, 
	0x75, 0x74, 0x3a, 0x30, 0x00, 0x00, 0x00, 0x00, 0x04, 0x00, 0x00, 0x00, 
	0x01, 0x00, 0x00, 0x00, 0x0f, 0x00, 0x00, 0x00, 0x0a, 0x00, 0x00, 0x00, 
	0x03, 0x00, 0x00, 0x00, 0x04, 0x00, 0x00, 0x00, 0x40, 0x00, 0x00, 0x00, 
	0x24, 0x00, 0x00, 0x00, 0x14, 0x00, 0x00, 0x00, 0x04, 0x00, 0x00, 0x00, 
	0xdc, 0xff, 0xff, 0xff, 0x09, 0x00, 0x00, 0x00, 0x00, 0x00, 0x00, 0x09, 
	0xe8, 0xff, 0xff, 0xff, 0x16, 0x00, 0x00, 0x00, 0x00, 0x00, 0x00, 0x16, 
	0xf4, 0xff, 0xff, 0xff, 0x11, 0x00, 0x00, 0x00, 0x00, 0x00, 0x00, 0x11, 
	0x0c, 0x00, 0x0c, 0x00, 0x0b, 0x00, 0x00, 0x00, 0x00, 0x00, 0x04, 0x00, 
	0x0c, 0x00, 0x00, 0x00, 0x03, 0x00, 0x00, 0x00, 0x00, 0x00, 0x00, 0x03
};
const int prey_car_len = 5496;